0000
0000
0000
0000
0000
0000
0000
0000
0000
0000
0000
0000
0000
0000
0000
0000
0000
0000
0000
0000
0000
0000
0000
0000
0000
0000
0000
0000
0000
0000
0000
0000
0000
0000
0000
0000
fffd
fffa
fffa
fffd
fffd
fffe
fffd
0000
0009
0006
fffc
ffff
ffff
ffff
0000
0001
0000
0000
0000
0000
0000
0000
0000
0000
0001
0000
ffff
fffd
fff6
ffef
fff1
fff1
ffee
fff0
ffef
ffeb
ffe9
ffe8
ffeb
fff1
fffa
fffb
fffd
fffa
fffa
0000
0000
0000
0000
0000
0000
0000
0004
0002
fffd
fff9
ffec
ffe8
ffe1
ffdf
ffe2
ffe8
ffe7
ffe5
ffde
ffdc
ffd7
ffdf
ffe1
ffdf
ffe5
fff3
fffb
0000
0000
0000
0000
0000
0000
fffe
fffb
fff4
fff1
ffea
ffe0
ffdc
ffe0
ffe3
fffb
001d
002a
0033
0024
0013
0006
000c
0004
fff9
ffed
fff0
fff8
fff6
fffe
0000
0000
0000
0000
0006
fff4
ffed
ffe6
ffe0
ffd8
ffd4
ffdd
ffe8
0002
002c
0049
0055
0062
0055
0038
001d
0006
fffa
ffe8
ffe8
ffe7
fff1
fffa
ffff
0000
0000
0001
fffa
fff2
ffeb
ffe1
ffd3
ffcc
ffd3
ffdd
ffee
000f
0028
0039
0052
0070
006d
0054
0036
0023
000d
fff2
ffe3
ffdd
ffea
fff5
fffb
0000
fffe
fffe
fff5
ffee
ffe9
ffdb
ffd8
ffd3
ffdd
ffe4
ffee
0012
0028
0044
0062
0072
007f
006d
0042
0029
0019
0003
ffea
ffdf
ffe1
fff2
fffc
0000
0001
0001
fff4
ffe7
ffe2
ffdd
ffd8
ffdf
ffe0
ffef
0003
0021
003a
0058
005c
0062
0067
0072
005e
0038
0027
0019
0004
ffe5
ffdd
fff6
fffb
0000
ffff
fffd
fff7
ffea
ffe2
ffe5
ffe6
ffe8
fff9
000d
002e
0045
0063
005f
0045
0035
003c
005c
0072
0057
0041
003a
002e
0000
ffda
fff8
fffc
0000
fffe
fffe
fff5
ffea
ffea
fff4
fff8
0002
0018
0030
004e
005b
0059
002c
fffe
ffe4
0001
0033
0068
0076
0067
0069
0064
0022
ffd4
fff5
fffe
0000
ffff
0000
fff1
ffe4
fff7
000f
000e
0021
0034
0046
004c
003c
0010
ffc9
ff9d
ff8c
ffa7
fff2
004f
0085
0097
0097
0088
0038
ffce
fff7
ffff
0000
0000
0000
ffec
ffdf
000a
0023
002a
0037
0044
004d
0033
fffc
ffb6
ff79
ff54
ff43
ff62
ffb8
0025
007f
00a2
00aa
0093
0043
ffd8
fff4
ffff
0000
0000
0004
ffea
ffd9
002d
003f
003e
004c
0056
004b
000b
ffb9
ff6e
ff42
ff1f
ff11
ff41
ff9a
000d
006f
00a1
00ae
008c
0043
ffe0
fff7
0000
0000
0001
0000
ffe6
ffe5
0050
0051
0060
006a
0068
003d
ffe1
ff80
ff46
ff20
ff00
ff00
ff3e
ffa0
0014
0064
0097
009e
008a
003c
ffe1
fffa
0000
0000
0001
0000
ffdf
000b
0053
0063
0082
0087
006d
002a
ffbf
ff65
ff30
ff12
ff00
ff19
ff60
ffc6
0028
0066
007c
007d
0075
002d
ffde
fffa
ffff
0000
fffd
fff8
ffd6
0007
004b
0076
009c
00a4
0071
0018
ffb1
ff61
ff37
ff1f
ff20
ff4a
ff9c
fffa
0046
0061
0062
005f
0053
001d
ffee
fffb
ffff
0000
fffc
fff7
ffd7
0006
0046
007b
00a4
00a9
0073
0019
ffbd
ff7c
ff51
ff46
ff56
ff91
ffe2
002a
0059
004f
004d
003f
0024
0011
fffa
fffc
fffe
0000
fffc
fff6
ffd8
fffb
0039
006a
00a1
00ab
0078
0024
ffd5
ff99
ff7a
ff80
ffa7
ffdd
001b
0041
004d
0031
002d
0019
0005
0011
0002
fffb
fffb
0000
0000
ffef
ffde
fff2
001e
0048
0082
0099
007f
0033
fff6
ffcb
ffb3
ffc7
ffee
0017
0038
0034
001f
0014
0016
0007
0007
0008
0003
ffff
fffa
0000
0000
fff4
ffe2
fff5
000c
0028
004e
007c
0083
005c
002b
000c
fff5
0001
001d
0036
0034
000f
0000
0000
0005
0002
0002
fff5
ffff
0005
ffff
0000
0000
fff9
ffe7
fffe
000b
001f
003a
0063
0084
0083
006c
004c
003a
0043
0050
0040
0016
fffd
fff6
fffc
fff9
fffa
fff3
fff6
fffe
000d
0000
0000
0000
fffd
fff2
fffa
000c
001b
0028
0042
0070
0089
008f
0088
0081
0070
0053
0027
0000
fff6
fff8
fff4
ffe8
ffea
fff0
fff2
fffd
000d
0000
0000
0000
ffff
fff7
fff2
0003
0001
000c
0021
003d
005c
0076
007b
0064
0041
0020
0000
fff6
fff1
ffe1
ffd6
ffde
ffee
fffe
0004
fffe
fff8
0000
0000
0000
0000
fffb
fff3
fff1
ffe5
ffe2
ffe3
ffed
fff5
fff6
fff8
fff3
ffed
ffe5
ffdb
ffdb
ffdf
ffe0
ffdd
ffe5
fff6
000a
000b
0000
0000
0000
0000
0000
0000
ffff
fff8
fff0
ffef
ffe8
ffdf
ffda
ffd4
ffd4
ffd6
ffd8
ffd5
ffd9
ffda
ffe3
ffeb
ffee
ffec
fff0
fff4
fff8
fff4
0000
0000
0000
0000
0000
0000
0000
ffff
fff5
fff6
fff5
fff1
ffee
ffef
fff0
fff1
fff0
ffed
ffee
fff3
fff5
fff6
fff7
fff6
fff4
fff3
fff6
0000
0000
0000
0000
0000
0000
0000
0000
0000
0000
fffe
fffe
ffff
ffff
fffc
fffd
fffd
fffd
fffb
fffb
fffb
fffa
fffa
fff9
fffb
fff9
fff6
0000
0000
0000
0000
0000
0000
0000
0000
0000
0000
0000
0000
0000
0000
0000
0000
0000
0000
0000
0000
0000
0000
0000
0000
0000
0000
0000
0000
0000
0000
0000
0000
0000
0000
0000
0000
0000
0000
0000
0000
0001
0001
0000
fffd
fffe
fffd
0000
0001
fffb
fff5
fffe
0001
0001
0001
0000
0000
0001
0000
0000
0000
0000
0000
0000
0000
0000
0001
0002
0001
0002
0000
fffc
fffe
fffd
fff2
fff4
fff3
fff4
fff3
ffef
fff2
fff2
fff9
fffa
fffe
fffa
fff9
0000
0000
0000
0000
0000
0000
0000
0002
0002
0001
fffe
fff8
ffee
ffea
ffe9
ffec
ffee
ffed
ffe8
ffd5
ffc8
ffcf
ffcc
ffdd
ffe7
ffee
fffd
fffe
0000
0000
0000
0000
0000
0000
fff8
fffb
fffa
fff6
fff5
fff6
ffea
ffe7
ffe1
fff4
0009
0014
000c
fffa
000b
001f
0023
002b
0042
0029
0008
fff9
fff3
0001
0000
0000
0000
0010
0002
ffff
fff5
fff4
ffef
ffe4
ffda
ffc8
ffc5
ffd7
fffa
0007
0009
ffec
fffe
0029
003b
003c
0031
0019
0002
fff6
ffee
fff8
0001
0000
0000
fff1
fff6
fffa
fff1
ffe9
ffd8
ffc7
ffb8
ffa6
ff9e
ffab
ffc9
ffe4
ffd1
ffbf
ffdf
0015
0027
001c
0004
ffef
ffda
ffd6
ffe4
fffa
fffa
0000
fff8
fffd
fff8
fff8
ffea
ffd9
ffcc
ffb8
ffa5
ff90
ff7f
ff8d
ffb9
ffee
ffe3
ffcd
ffdf
0007
0004
ffec
ffda
ffce
ffbd
ffc0
ffd7
fff5
fffd
0000
0000
0001
fffe
fff6
ffe5
ffd8
ffcd
ffbf
ffa7
ff8b
ff74
ff84
ffd2
002b
0038
000c
fffa
fff6
ffd3
ffbd
ffbb
ffb6
ffa7
ffaf
ffce
fff5
fff9
0000
0004
0001
0000
fff9
ffeb
ffe1
ffde
ffce
ffb4
ff8b
ff73
ff91
fff8
007a
009a
0051
0000
ffd7
ffaf
ffa2
ffb0
ffb6
ffb3
ffad
ffc3
fff0
fff8
0000
000b
0000
fffe
fffb
fff2
fff1
ffe8
ffd8
ffbb
ff83
ff68
ff88
000c
00ce
00f8
006d
ffee
ffae
ff9a
ffa8
ffc3
ffd5
ffd8
ffd7
ffd9
ffeb
fffb
0000
0000
0001
fffc
fff9
fff6
fff9
ffef
ffdb
ffb3
ff75
ff4b
ff6a
002a
0119
0122
0052
ffbd
ff96
ff9e
ffc0
ffe2
fff6
fff6
fff0
ffeb
fff2
0000
0000
0001
ffff
fffb
fffd
fff8
fffd
fff7
ffdc
ffa7
ff5e
ff2f
ff4f
0053
0142
0100
0012
ff8c
ff86
ffa9
ffd4
fff4
0001
0001
fff9
fff0
fff4
0000
0000
0001
fff9
fffb
fffe
fffb
fffd
fff4
ffd6
ff96
ff4d
ff17
ff50
007d
011f
00ab
ffbf
ff61
ff7e
ffb8
ffdb
fff6
fffd
fffc
fff5
fff2
fff4
0000
0000
0001
ffff
fffb
fffe
fffe
fffb
ffef
ffd3
ff9a
ff4d
ff17
ff77
009d
00f5
0068
ff77
ff3f
ff86
ffbb
ffdc
ffef
fff7
fff8
fff9
fff8
fffe
0000
0000
0001
0001
fffa
fffd
fff9
fff9
ffee
ffd3
ff9d
ff58
ff4a
ffd1
00c4
00ec
0038
ff4a
ff3c
ff89
ffb6
ffd7
ffeb
fff4
fff4
fff5
fff5
fff6
ffff
0000
fffa
fffe
fff8
fff9
fff8
fff3
ffeb
ffcd
ff9a
ff6f
ff93
0025
00d8
00ce
fff4
ff37
ff44
ff82
ffb2
ffd1
ffe8
fff0
ffef
ffed
ffee
ffed
ffff
0000
fffd
fffd
fff6
fff4
ffef
ffe1
ffda
ffc0
ff9b
ffa7
ffe9
0061
00e3
00ab
ffd2
ff41
ff4c
ff88
ffb8
ffd5
ffe4
ffe8
ffe5
ffe5
ffe4
ffec
fff2
0000
fffe
fffb
fff8
fff3
ffe0
ffca
ffc1
ffb3
ffb4
ffe4
002c
0079
00c6
007a
ffd3
ff5f
ff68
ff97
ffc0
ffdb
ffe4
ffe4
ffe8
ffe8
ffec
0007
003a
0000
0000
fffa
fffb
fff5
ffdb
ffc0
ffad
ffad
ffd3
0013
0042
0061
0081
0042
ffd7
ff89
ff85
ffac
ffce
ffe0
ffe5
ffe7
fff3
fff8
fff6
fff8
004a
0000
0000
fffc
fffd
fff8
ffe1
ffc9
ffbf
ffca
ffec
0025
0035
002e
0038
0019
ffd6
ffaa
ff9d
ffb7
ffcc
ffd8
ffe5
ffef
fff8
0009
000a
fffc
ffff
0000
0000
ffff
0005
0002
ffed
ffde
ffe0
fff5
000d
0023
0003
ffeb
fffc
0001
ffef
ffc6
ffb5
ffc0
ffcd
ffd9
ffe5
fff1
fffd
000c
002a
0007
0000
0000
0000
0001
0003
0009
fffb
fff3
0003
001a
0022
0009
ffd3
ffba
ffd6
0002
fffd
ffe4
ffd2
ffd4
ffdf
ffe7
ffe6
ffee
fffc
000a
001e
0001
0000
0000
0000
0000
fff8
fffc
fffa
ffff
0014
002b
002d
0003
ffc9
ffb5
ffd7
ffff
0010
0003
ffeb
ffe8
ffee
fff4
ffed
fff7
fff9
fff7
fffa
fffe
0000
0000
0000
0000
fff9
fff0
ffe9
ffdd
ffd5
ffcd
ffd0
ffbd
ffa7
ffa0
ffb9
ffc8
ffd6
ffdd
ffe0
ffec
fff4
fff2
fff9
ffff
fffe
fffa
fff7
0000
0000
0000
0000
0000
fff1
ffe9
ffe3
ffd7
ffc9
ffc1
ffba
ffad
ffb5
ffc1
ffc0
ffc8
ffd4
ffe2
ffed
fff1
fff5
fffb
ffff
ffff
fff9
fffb
0000
0000
0000
0000
0000
0000
fffa
fff6
fff2
fff1
fff0
ffe8
ffe8
ffeb
ffe7
ffe8
ffec
ffeb
fff1
fff7
fffa
fffe
ffff
ffff
ffff
fffd
fffe
0000
0000
0000
0000
0000
0000
0000
0000
0000
0001
fffd
fffe
0001
0000
fffd
0000
0003
0004
fffe
fffe
0000
ffff
fffe
ffff
ffff
ffff
fffb
0000
0000
0000
0000
0000
0000
0000
0000
0000
0000
0000
0000
0000
0000
0000
0000
0000
0000
0000
0000
0000
0000
0000
0000
0000
0000
0000
0000
0000
0000
0000
0000
0000
0000
0000
0000
0000
0000
0000
0000
fff7
ffee
fff5
000c
0011
0013
0001
fffb
0011
0039
0007
fffc
fffc
fffc
fffd
fffd
fffe
0000
0000
0000
0000
0000
0000
0000
0000
0000
fff0
ffee
0002
0000
0003
0006
000b
0039
002e
0024
0012
0002
fff4
ffe3
ffe6
ffeb
ffef
fff4
001b
0031
0000
0000
0000
0000
0000
0000
0000
0000
0008
000e
0023
0034
0057
0072
0086
0084
0083
0077
0073
006a
0049
001f
0009
fffd
fffa
fff1
0006
fffe
0000
0000
0000
0000
0000
0000
fff4
ffed
001b
003b
003d
0042
0079
0087
0098
00b5
00c4
00c2
00be
00a9
0087
004a
0012
fff0
ffe1
ffd1
ffde
fff0
0007
ffff
0000
0000
0000
fffc
0000
0017
003f
0054
004d
005f
0079
0090
009d
00a4
00a9
00b2
00a4
0092
0076
004e
001b
0000
ffe2
ffdc
ffce
ffe4
0001
fff9
ffff
0000
0000
fffc
0004
0014
0037
003b
0049
0049
0059
006d
0070
006a
0068
005f
0058
0050
0041
003a
001f
000b
fffa
ffde
ffc6
ffd5
ffe8
fff6
fffa
fffe
fff6
0014
0004
0014
002d
0037
0033
002d
0022
0032
003c
002e
0017
0005
000d
000e
0012
0015
0017
0004
ffff
ffe5
ffc4
ffc8
ffdf
fff3
fffc
fffe
fffe
0003
fffa
0018
0024
0026
0013
0003
fff4
fffc
fff0
ffdb
ffc8
ffc5
ffe8
fffd
0015
0010
000b
000f
0001
ffe3
ffc0
ffbe
ffdf
fff6
fffa
fffe
fffa
fff7
fff7
0005
0010
fff9
ffdb
ffbd
ffb0
ffad
ff9d
ff91
ff90
ff9f
ffd9
0006
001c
0018
0019
0017
fffe
ffde
ffc4
ffc1
ffdc
fff5
fffc
0000
fff9
fff7
fff0
fff8
ffed
ffc2
ff9d
ff88
ff74
ff66
ff5b
ff55
ff5b
ff89
ffcc
000d
001d
0018
0029
0023
fffe
ffdf
ffca
ffd7
ffe1
000b
fffe
0000
fffe
fffb
fff2
fff3
ffdd
ffa0
ff77
ff5c
ff42
ff28
ff22
ff2b
ff3a
ff74
ffc9
0007
000d
000f
0033
0027
fff8
ffd3
ffc6
ffe4
fff5
fff5
fffe
0000
ffff
fffc
0006
ffea
ffc0
ff8a
ff63
ff4b
ff2a
ff09
ff07
ff1d
ff39
ff75
ffb9
ffe6
fff0
000f
001f
000f
ffe2
ffc7
ffc9
ffe2
0016
0017
fffe
0000
ffff
fffc
001f
ffea
ffac
ff84
ff6b
ff53
ff32
ff21
ff30
ff50
ff6a
ff89
ffad
ffd8
fff1
000b
0004
ffe7
ffc0
ffbe
ffce
ffe3
000a
000e
0000
0000
ffff
fffe
0009
fff0
ffbd
ffa3
ff92
ff7d
ff6b
ff7d
ffa8
ffc2
ffd0
ffd2
ffdf
ffed
fff8
fffd
ffe9
ffcb
ffb3
ffaf
ffc6
ffe9
fff7
001c
0000
0000
ffff
fffd
0009
fffc
fff4
ffde
ffda
ffce
ffdd
fffe
001f
002b
003b
0035
002e
0020
000a
fff6
ffd9
ffc6
ffc1
ffc5
ffe0
0002
0020
005c
fff9
0000
fff4
ffe8
0014
0025
0037
0031
0028
0027
0043
0060
007c
0093
0093
0084
0071
0057
002b
0002
ffed
ffea
ffef
0005
0028
0052
0079
0081
fff9
0000
fff7
ffe5
0025
004b
0070
0081
0070
0074
0084
0088
009c
00c0
00bd
009b
0087
0071
0044
0015
0006
001a
0031
004c
0074
0088
008f
0068
0037
0000
fff8
ffe3
0023
0068
0088
00a4
00a8
00a3
0097
0097
00ac
00cd
00b6
0087
006d
0064
0048
0028
001d
0033
004a
006f
00a0
00aa
0089
003d
0005
0000
0000
ffe5
0027
0068
0093
00ac
00b7
00b1
00b3
00a9
00b1
00aa
0080
0056
003e
0034
0031
0031
0038
004c
005f
0072
0086
0093
0076
0024
fff7
0000
fff7
fff4
0021
0056
008b
00a5
009a
009d
00a9
009a
0090
0066
0032
0008
fff7
ffff
0017
003b
0062
0082
007f
006d
0066
005f
003a
001c
ffff
0000
fff7
000e
0030
0043
0071
007e
007d
0073
0077
0063
004d
0016
ffd2
ffa6
ffa7
ffcf
ffff
0036
0064
0075
0074
0062
0049
0031
0013
0002
0000
0000
0000
0019
0032
0042
004b
0056
005e
004a
0032
000f
ffe9
ffb3
ff7f
ff74
ff8a
ffba
fff5
0020
0030
0043
0064
005b
0038
001d
0012
000a
0000
0000
0000
fff9
0002
0022
0025
0033
0012
ffe6
ffc5
ffa5
ff85
ff69
ff5b
ff64
ff7b
ffa6
ffd2
ffe8
ffec
fff5
0012
0023
001d
0013
0023
003c
0000
0000
0000
0000
fff9
0007
fff9
fff8
ffe2
ffbc
ffa7
ff99
ff8f
ff8e
ff90
ff93
ff9e
ffb0
ffc8
ffd4
ffdc
ffdd
ffd9
ffde
fff3
001b
0029
0000
0000
0000
0000
0000
fffa
fff2
ffe9
ffe4
ffd9
ffce
ffc7
ffc4
ffc4
ffc7
ffc6
ffc8
ffcd
ffd2
ffd9
ffe6
ffec
ffea
ffe8
ffed
fff4
fff5
0000
0000
0000
0000
0000
0000
fffe
fffb
fff7
fff3
ffed
ffe8
ffe5
ffe4
ffe6
ffe7
ffe6
ffe6
ffe9
ffed
fff0
fff2
fff4
fff5
fff7
fff9
fffe
0000
0000
0000
0000
0000
0000
0000
0000
0000
ffff
fffd
fffc
fffe
fffc
fff8
fff9
fffa
fffc
fff9
fff8
fff9
fffa
fffb
fffb
fffd
fffe
fff8
0000
0000
0000
0000
0000
0000
0000
0000
0000
0000
0000
0000
0000
0000
0000
0000
0000
0000
0000
0000
0000
0000
0000
0000
0000
0000
0000
0000
0000
0000
0000
0000
0000
0000
0000
0000
0000
0000
0000
0000
0000
ffff
fffd
fffc
fffd
fffd
fffd
fffe
fffb
fffe
ffff
fffe
fffe
ffff
ffff
ffff
0000
0000
0000
0000
0000
0000
0000
0000
0000
0000
ffff
ffff
fffe
fffb
fff7
fff7
fff5
fff1
fff0
fff2
fff3
fff1
fff0
fff0
fff3
fff7
fff9
fffb
fff9
fff9
0000
0000
0000
0000
0000
0000
0000
ffff
fffe
0009
000b
000c
000b
0012
0009
0010
0011
000d
fff9
fff8
fff4
ffe5
ffe4
ffe8
ffe6
ffea
fff5
fffc
0000
0000
0000
0000
0000
0000
002e
0032
0011
0016
0027
003a
0044
005c
0068
006a
0056
0041
002b
0013
0002
fff7
ffe7
ffcf
ffc1
ffca
ffd6
ffea
fff8
ffff
0000
0000
0000
fffe
0011
0017
002c
0040
0062
0066
0077
008c
0091
0098
008c
0063
0049
0037
0014
fffb
ffe3
ffc5
ffac
ffa8
ffc5
ffd6
fff0
fff9
fffe
0000
0000
0030
0051
0030
0045
0074
0088
009f
00a2
00a7
00a0
0093
007e
0065
0060
005b
003d
0024
0010
ffff
ffd4
ffb9
ffb9
ffc8
ffe8
fff7
fffb
fffc
0013
fffd
006c
005f
005d
0076
007a
0073
006c
0052
003c
0037
0032
0042
0052
005a
0051
0032
002c
001d
ffef
ffd7
ffc3
ffc1
ffe1
fff5
fffd
fffc
fffc
fff2
005e
0063
0058
0054
0037
0011
fff9
ffde
ffcc
ffcd
ffe0
0003
0037
0061
0056
0047
0032
001a
fff1
ffdb
ffd0
ffc4
ffe0
fff8
fffb
fffc
fffb
0019
0036
0031
0023
0012
fff0
ffbf
ff8e
ff69
ff55
ff74
ffab
fffb
0057
0082
0077
0051
0020
0011
ffeb
ffe0
ffd8
ffd0
ffe4
fff8
fffd
0000
fffa
001f
0024
000e
fff9
ffe0
ffb3
ff78
ff4a
ff1e
ff27
ff76
ffdd
004f
00a8
00b9
0086
0043
ffff
ffe2
ffd4
ffd8
ffda
ffe1
ffed
fff8
ffff
0000
fffd
001c
0021
0000
ffe2
ffc2
ff93
ff5e
ff42
ff30
ff64
ffe4
0066
00d7
00e6
00be
006c
001f
ffde
ffc1
ffb8
ffc9
ffda
ffe7
fff2
fffa
fffe
0000
ffff
0001
000c
fff7
ffd8
ffb2
ff90
ff6e
ff67
ff87
ffe5
006d
00d5
00e7
00c6
0080
0034
fff5
ffc9
ffae
ffac
ffc0
ffd6
ffea
fff7
fff9
fffe
0000
ffff
fffb
ffff
fffc
ffde
ffb8
ff9c
ff8c
ff9f
ffdb
0040
00a5
00c3
00b3
008c
005b
0022
fff6
ffce
ffbc
ffb7
ffbe
ffd3
ffe7
fff6
fff9
0000
0000
ffff
fffe
fff1
fff1
ffd9
ffbd
ffa7
ffa0
ffc5
ffef
003f
0067
005b
0044
0034
0031
0028
0024
fffa
ffe0
ffdc
ffcf
ffd6
ffe2
fff3
fff9
0000
0000
ffff
0007
fffd
fffa
ffe1
ffbe
ffa8
ff96
ffa3
ffc2
fff1
fffd
ffe8
ffd4
ffd2
0004
0039
0052
0038
0007
fff9
ffed
ffe1
ffe5
fff0
0007
ffff
0000
0036
0048
0037
0015
fff0
ffc8
ffa8
ff87
ff6e
ff64
ff71
ff82
ff76
ff6f
ff93
ffea
0041
0078
0058
0019
0012
fffa
ffe9
ffe4
ffed
fff6
ffff
0000
002f
0053
0077
004b
001a
ffde
ffb3
ff8a
ff5a
ff31
ff24
ff3c
ff35
ff3e
ff85
fff2
004e
0080
0064
0027
0021
000c
ffe4
ffdb
ffe6
fff6
fffd
0000
002c
0054
009a
007c
004a
0015
ffe0
ffab
ff6d
ff39
ff29
ff37
ff39
ff55
ffa6
000c
005b
0072
005d
0036
0027
0015
ffdd
ffd9
ffe7
fff4
fff8
0000
0000
003d
007b
009d
008d
0053
0017
ffdc
ff87
ff5a
ff47
ff55
ff6e
ff9c
ffe3
0034
0066
005c
004b
0041
0027
000f
ffd9
ffdf
ffec
fffa
fff8
0000
000f
0045
0074
0099
00a3
007f
004d
001c
ffcf
ff96
ff8a
ff9b
ffbb
fff8
0033
005d
0064
0048
0036
0037
0026
0001
ffd6
ffde
ffed
fff9
fffe
0000
000f
002c
005c
0096
009f
00a2
008f
0065
002d
0004
ffea
ffe9
0007
003a
005b
0069
004d
0037
002c
0021
0006
ffe7
ffd6
ffdf
fff0
fffd
0000
0000
0000
0001
0042
006e
007e
009f
00a8
009e
0087
006e
005c
004e
0057
005c
0061
0047
0026
0015
0010
0005
ffe6
ffd7
ffda
ffec
fff7
fffd
0000
0000
0000
0016
005b
0066
0063
0087
009c
0096
009d
0096
008d
007a
006b
0051
0038
0016
0002
000a
0001
ffe4
ffe2
ffdc
ffe4
fff4
fffa
fffc
0000
0000
0000
0000
006c
0060
0060
0075
0090
008e
0074
0061
005a
0053
0046
002e
0008
fff2
ffe7
fff0
ffe4
ffe6
ffeb
fff7
fff6
fff6
fffc
0000
0000
0000
0000
0000
000b
0026
003b
0041
0040
0033
0025
001d
001f
0024
001d
fff6
ffee
ffea
ffe6
fff0
fff5
fff8
0001
000a
fffb
fffc
0000
0000
0000
0000
0000
0000
fffc
fffa
ffff
fffb
fff4
ffed
ffe8
ffec
ffed
ffec
ffeb
ffe7
ffe8
ffe7
ffee
fff8
0002
0009
0000
fffb
fffd
0000
0000
0000
0000
0000
0000
0000
0000
0000
ffff
fffd
fffd
fffe
fffd
fff9
fff9
fffa
fffb
fff8
fff7
fff9
fffa
fffa
fffb
fffd
fffe
fffa
0000
0000
0000
0000
0000
0000
0000
0000
0000
0000
0000
0000
0000
0000
0000
0000
0000
0000
0000
0000
0000
0000
0000
0000
0000
0000
0000
0000
0000
0000
0000
0000
0000
0000
0000
0000
0000
0000
0000
0000
ffff
fffd
fffc
fff9
fff4
fff3
fff7
fff8
ffea
fff0
fffb
fffc
fffd
fffd
fffe
fff9
fff8
0000
0000
0000
0000
0000
0000
0000
0000
0000
fffe
fffd
fffb
fff5
ffec
ffe5
ffdd
ffd8
ffda
ffd2
ffd5
ffdd
ffde
ffe2
ffe9
fff2
fff5
fff7
fff4
fff7
0000
0000
0000
0000
0000
0000
0000
ffff
fffc
fffb
fff2
ffeb
ffe2
ffd2
ffca
ffc4
ffba
ffb5
ffb0
ffb5
ffbb
ffc2
ffcf
ffe9
fff5
fff6
0000
fffd
0000
0000
0000
0000
0000
0000
fffb
0009
0008
0006
0006
ffff
ffe4
ffd5
ffc4
ffb4
ffa2
ff90
ff86
ff91
ffa5
ffbb
ffe8
000f
000f
0027
0015
000b
fff6
fffe
0000
0000
0000
fffe
fffd
0014
0014
000a
0010
0005
0004
fff4
ffc9
ffaf
ff86
ff66
ff55
ff75
ff9f
ffd0
000e
0031
0046
0066
0062
004b
001c
fff5
fffc
0000
0000
fff9
0000
0024
0026
000f
0012
0010
0004
fff2
ffc2
ff94
ff58
ff07
fee2
ff11
ff6b
ffc5
0004
002e
004a
005c
0062
0041
0008
fff4
fff3
fffd
fffa
fffa
fff6
0012
001d
000a
0006
0007
0005
ffdd
ffab
ff6c
ff14
feb7
fe9d
feea
ff5e
ffca
fff7
0014
002e
003f
0037
0019
fffc
0002
fff7
fffd
fffd
fff7
fffa
000f
000e
fffd
0000
fff6
fffb
ffd4
ffb0
ff72
ff21
fed9
fed6
ff32
ff8e
ffd2
fff7
0010
001a
001e
0006
ffea
ffee
0005
ffed
fffd
fff8
fff4
fff7
0004
0002
ffee
fff7
fff1
fff4
fff0
ffe5
ffbb
ff67
ff1e
ff39
ff9e
ffe6
fffc
0009
0008
0006
ffff
ffe5
ffd9
ffe5
fff6
fff5
0000
fff8
fff3
ffee
fff7
ffef
fff1
0003
000b
0017
002f
0026
fff2
ff8b
ff51
ff88
fff1
003c
0031
0016
0005
fffb
ffeb
ffdd
ffec
ffe5
fff2
fff8
0000
fffd
fff6
ffee
fffa
fffb
fffe
001b
003d
004e
0077
0059
fffe
ff8d
ff6e
ffb3
0027
006a
0049
001f
0004
ffe8
ffe8
ffe1
ffdb
ffe1
fff5
fffe
0000
0003
fffa
fff6
fff9
000b
0017
004f
0075
00a6
00a9
0063
ffe3
ff8b
ff80
ffc2
003e
0076
0053
0026
0006
ffe9
ffea
ffd9
ffe0
ffe7
ffec
fffe
0000
0009
fff9
ffe3
0002
0018
0048
008f
00bc
00e2
00cc
0071
ffef
ffad
ffa1
ffd6
005c
009c
0078
0053
0038
000e
fffc
fff0
fff4
fff2
ffe3
0000
0000
0009
0007
0005
002d
0040
0083
00c2
00f8
0105
00de
009b
0047
0003
ffea
0034
00a1
00c5
00a6
0082
0053
0023
0013
0007
ffef
fff3
ffee
0000
0000
0009
0006
0024
0030
0045
0093
00dd
010a
0103
00d1
00ae
007a
003e
0047
0098
00d3
00d2
009f
006f
003f
0018
0014
0009
fff3
fff7
fff0
0029
0000
fffd
fffa
0009
0009
002d
0070
00b7
00e0
00c8
00a5
0082
0068
005a
007f
00bb
00d7
00ba
0072
0032
000e
fff0
ffea
ffe3
ffec
ffe3
fff7
0029
0000
fffd
fff9
ffe9
ffe3
fffa
001d
0051
005d
004a
0028
001f
0025
0042
006f
0096
0096
0059
0010
ffdd
ffc4
ffb7
ffbb
ffce
ffe3
ffe7
fff5
fffb
0000
fffd
fff5
ffd6
ffc8
ffd7
ffd8
ffdd
ffd2
ffbd
ffa1
ffad
ffd0
0016
0043
004e
003a
fffd
ffc0
ffab
ffb1
ffb3
ffb5
ffc3
ffd9
ffec
fffb
fff9
0000
0000
fff6
ffe0
ffcb
ffb8
ffa6
ff8f
ff73
ff5e
ff59
ff69
ffa9
fff1
000b
0011
0000
ffd6
ffb1
ffa2
ffb2
ffbe
ffbf
ffcd
ffe5
fff0
fffe
fff8
0000
0000
fff8
ffe7
ffd1
ffad
ff91
ff75
ff56
ff43
ff3e
ff5d
ff9c
ffc5
ffd5
ffdc
ffd8
ffd0
ffbd
ffad
ffbe
ffd2
ffd7
ffe3
fff4
0007
ffff
fffd
0000
0000
fff9
ffec
ffda
ffb7
ff96
ff77
ff5f
ff4b
ff46
ff63
ff89
ffaa
ffaa
ffb8
ffc9
ffd6
ffd7
ffd2
ffdf
ffe9
fff0
fff0
0000
0010
ffff
0000
0000
0000
fffd
fff1
ffe4
ffc8
ffac
ff93
ff7a
ff6b
ff60
ff7a
ff8f
ffa8
ffa9
ffc2
ffe1
fffc
0005
0007
fffd
ffff
0004
0009
0009
000a
fffe
0000
0000
0000
fffd
fff4
ffe7
ffd7
ffc7
ffb7
ffa4
ff95
ff8c
ffa0
ffac
ffba
ffc5
ffdd
0004
0023
0028
0037
001e
0011
000b
0014
0010
0001
fffb
0000
0000
0000
0000
fff5
ffed
ffe3
ffec
ffd7
ffc2
ffbc
ffb7
ffcb
ffd2
ffcc
ffd2
ffe9
0008
0010
000f
0017
001e
0005
ffff
000a
000e
fffc
0000
0000
0000
0000
0000
fffb
fff2
ffec
ffe2
ffd1
ffc5
ffbb
ffab
ff9a
ff93
ff9f
ffbc
ffcf
ffc4
ffb0
ffa9
ffc6
ffe0
ffd7
ffef
0003
fffc
0000
0000
0000
0000
0000
0000
fffe
fffb
fff5
ffee
ffe5
ffd9
ffc9
ffc3
ffc3
ffc1
ffb9
ffac
ffb0
ffb7
ffba
ffc5
ffc9
ffd5
ffe4
ffed
fff2
0000
0000
0000
0000
0000
0000
0000
0000
0000
fffe
fffa
fff9
fffc
fffb
fff5
fff5
fff5
fff4
ffeb
ffec
fff0
ffea
ffeb
fff1
fff6
fff1
ffee
0000
0000
0000
0000
0000
0000
0000
0000
0000
0000
0000
0000
0000
0000
0000
0000
0000
0000
0000
0000
0000
0000
0000
0000
0000
0000
0000
0000
0000
0000
0000
0000
0000
0000
0000
0000
0000
0000
0000
0000
ffff
fffe
fffc
fffa
fffb
fffb
fffb
fffc
fff7
fffb
fffd
fffc
fffc
fffd
fffd
fffe
ffff
0000
0000
0000
0000
0000
0000
0000
0000
ffff
ffff
ffff
fffd
fffa
fff5
fff4
fff1
ffea
ffe7
ffe1
ffdd
ffdb
ffd9
ffdc
ffe4
ffed
fff1
fff6
fff6
fff6
0000
0000
0000
0000
0000
0000
0000
fffe
fffc
fff9
fff5
ffef
ffe7
ffdf
ffdb
ffd7
ffd0
ffd2
ffd0
ffc5
ffbe
ffc8
ffdc
fff6
0007
001f
0015
0014
0000
0000
0000
0000
0000
0000
fff9
fff6
fff0
ffe3
ffd7
ffe1
ffe0
ffe4
ffef
ffe1
ffd0
ffd1
ffd2
ffd7
ffe7
fffd
000b
0026
0048
005e
005d
0047
003b
000b
0000
0000
0000
fffe
fff7
ffee
ffdf
ffdc
ffe2
fffc
fff4
fff9
fffc
ffed
ffe3
ffdd
ffda
ffec
000b
002e
0048
006c
008a
008b
0090
0083
0042
000b
0012
0000
0000
fffc
ffef
ffeb
ffdd
ffd5
ffe7
fff9
0007
000e
001a
0012
fffc
fff3
ffeb
ffeb
fffb
0019
0045
006a
0097
00b1
00ce
00e5
00a5
0040
fff9
fffe
fff9
fffa
ffe4
ffdd
ffd7
ffd2
ffda
0003
0013
002a
0036
001c
ffff
ffe8
ffd3
ffce
ffd4
ffee
0026
0060
008d
00b8
010b
0142
00f3
0058
000e
fffe
fffc
fff8
ffdc
ffd2
ffda
ffcd
ffe6
000f
001b
0022
0035
001d
fffd
ffef
ffd2
ffc0
ffbe
ffc9
fff1
0030
006a
0099
00fd
0150
0123
004a
0010
fffe
fff9
fff5
ffe1
ffde
ffdd
ffd9
ffe9
001d
002a
002f
0040
0025
001a
0005
ffe0
ffbc
ff9b
ff91
ffa3
ffc5
fff8
0024
0084
010c
0112
0060
0034
0000
fff9
fff6
ffe6
ffe7
ffdc
ffe0
fffb
002b
0043
005a
0071
0076
006c
002c
ffe3
ff99
ff52
ff3b
ff37
ff58
ff8b
ffba
0004
0064
00bb
004e
001c
0000
fffc
fff7
ffe9
ffe7
ffe2
ffed
000c
0038
005a
008b
00c9
00b6
0076
0011
ffbc
ff71
ff1f
fef5
fef2
ff14
ff53
ff84
ffbb
fffd
0055
0050
fffe
0000
fffe
fff9
fff5
ffee
ffe2
fffc
0014
0032
006c
00b9
0104
00f3
008c
000e
ffb3
ff6a
ff39
ff25
ff27
ff43
ff65
ff89
ffa9
ffca
0003
0017
fffe
0000
ffff
fff9
fff6
fff6
ffdf
fff6
0001
0025
0068
00ba
0104
00e6
006d
000a
ffae
ff71
ff6c
ff7f
ff8c
ff8c
ff8e
ff95
ffb1
ffcb
ffeb
fff3
0000
0000
ffff
fffe
0002
ffec
ffce
ffd7
ffcb
ffe8
002b
0085
0099
007d
0019
ffc1
ff84
ff78
ff93
ffbe
ffd8
ffd9
ffba
ffb2
ffbe
ffdf
ffef
fff6
0000
0000
ffff
fffd
0009
ffea
ffc5
ffb4
ff9a
ffa3
ffcf
0006
0006
ffd9
ff99
ff73
ff60
ff7b
ffaa
ffde
0008
000b
ffe9
ffcc
ffd4
ffea
fff2
fff2
fffc
0000
fffb
fff6
000b
fff7
ffcc
ffa5
ff7e
ff5f
ff6c
ff88
ff83
ff68
ff50
ff4e
ff6d
ff93
ffc4
ffef
001b
0024
000f
fff2
ffec
ffee
fff7
fff3
fffc
0000
fffb
fff4
fff5
fffe
fff4
ffe8
ffae
ff6d
ff41
ff35
ff31
ff2d
ff36
ff50
ff96
ffcd
ffec
0003
001e
002e
002c
0011
0000
fff3
fff5
fff1
fffb
0000
fffb
fff6
ffeb
fffb
0025
0048
0004
ffa4
ff60
ff43
ff3e
ff48
ff59
ff7f
ffba
ffe9
fffa
0021
0029
003f
003d
002b
0012
fff8
fff6
fff3
fff7
0000
0000
001e
fff3
fff5
0031
007e
0064
0023
ffd1
ff9f
ff8c
ff8a
ff93
ffa8
ffc8
ffea
0009
003b
0046
0044
0044
0036
001d
fffb
fff3
fffb
fff7
0000
fffe
0009
fff4
ffed
0021
006a
0092
0082
004e
0013
ffe8
ffbf
ffbb
ffb8
ffd5
0004
0037
0052
0052
0039
0032
0036
0025
fffe
fff2
fffa
0013
0000
fffe
fff5
ffed
ffe1
000d
0037
0059
0078
006a
0048
0029
ffff
ffe2
ffec
0003
0035
005b
005b
004a
003a
003a
0036
0024
0004
fff0
fffb
0000
0000
0000
fffa
ffec
ffe0
fff1
fff7
000e
002c
003f
003a
003c
002c
0027
002d
0047
0066
005e
0052
0039
002c
0027
0031
0017
ffff
fff4
fffc
0000
0000
0000
fffc
fff6
fff3
ffeb
fff1
ffef
fffc
0015
0024
002f
003b
003f
0053
0054
0044
0030
0018
0008
0014
0017
0017
0000
fff9
fffa
fffb
0000
0000
0000
0000
fffb
0001
0001
fff2
ffe7
fff7
0008
0012
0021
002e
0025
001d
000f
ffff
fffd
fffc
fffc
0004
000d
000a
fff1
fff5
fffb
0000
0000
0000
0000
0000
fffa
ffee
ffe7
fff2
ffe9
ffee
ffee
fff6
ffed
ffee
ffe7
ffdb
ffe3
ffe3
ffe5
ffe3
ffe1
ffe4
ffec
fff2
fff7
fff8
0000
0000
0000
0000
0000
0000
fffd
fffb
fff5
fffb
fff0
ffe3
ffde
ffe2
ffe1
ffe4
ffe4
ffe3
ffe7
ffea
ffe7
ffe5
ffec
fff1
fff5
fff8
fffb
0000
0000
0000
0000
0000
0000
0000
0000
0000
ffff
fffb
fffa
fffb
fffa
fff5
fff5
fff6
fff6
fff1
fff1
fff4
fff5
fff5
fff7
fffb
fff9
fff7
0000
0000
0000
0000
0000
0000
0000
0000
0000
0000
0000
0000
0000
0000
0000
0000
0000
0000
0000
0000
0000
0000
0000
0000
0000
0000
0000
0000
0000
0000
0000
0000
0000
0000
0000
0000
0000
0000
0000
0000
000b
001f
0025
001a
0015
0015
001c
0020
0032
fff0
0005
0019
0013
0010
0010
000f
000d
0000
0000
0000
0000
0000
0000
0000
0000
0001
0015
0018
000e
0030
0054
0057
0068
0067
0071
0095
00b3
00c8
00df
00db
00b2
006e
0056
003a
0027
0010
0000
0000
0000
0000
0000
0000
0000
0000
0005
0005
000d
0027
0035
0045
0055
0069
0084
00ae
00e3
0113
0142
014d
011e
00c9
009a
0067
0016
0008
0000
0000
0000
0000
0000
0000
fffe
fffc
000e
000a
0009
0010
001e
0021
0022
0017
0020
0043
006d
0094
009e
0092
0073
0059
003a
002a
001e
fffa
fff9
0000
0000
0000
0000
0000
fffe
0002
0005
0002
fff6
ffff
0001
ffff
fff5
ffef
ffef
0003
0029
0030
0020
000a
fffc
fff4
fff0
fffe
fffe
fff5
fff6
ffff
ffff
0000
0000
0001
fff8
fff7
fff8
fffc
ffef
ffed
ffeb
ffe1
ffdb
ffd6
ffd9
fff3
fffd
ffde
ffba
ff9f
ff98
ffa4
ffbd
ffdb
ffed
ffea
fff0
fffe
0004
ffff
fffe
fffe
fff0
fff0
fff0
fff1
ffe9
ffe0
ffda
ffd6
ffce
ffc8
ffe9
fff3
ffde
ff9f
ff67
ff4a
ff4e
ff71
ff9f
ffc3
ffd5
ffdd
ffe6
fff5
0005
ffff
0000
fffd
ffef
ffea
ffec
ffe8
ffdf
ffda
ffdb
ffd6
ffc9
ffe1
0005
0007
ffd2
ff7b
ff33
ff16
ff2c
ff5e
ff8c
ffb2
ffc9
ffd7
ffe0
fff5
fff7
ffff
fffd
fffc
fff1
ffe9
ffe5
ffec
ffea
ffea
ffe9
ffe0
ffe4
0014
002b
0017
ffbd
ff5b
ff1b
ff17
ff3a
ff6b
ff98
ffbb
ffca
ffd3
ffde
fff3
fffb
0000
fffc
fffc
fff3
ffec
ffe7
fff7
0000
fffa
fffb
fff4
0018
0040
0050
0006
ff94
ff4a
ff2e
ff3b
ff59
ff86
ffb5
ffda
ffeb
ffef
ffea
fff1
fffd
0000
ffff
fffe
fff2
ffee
fff0
0008
0009
0009
0009
0014
0036
0062
0045
ffd4
ff76
ff67
ff6a
ff7d
ff9a
ffbb
fff4
0013
0025
001a
fff2
ffea
ffff
0000
0000
ffff
fff3
fff0
0000
0011
0017
0016
0018
0038
0055
0061
0011
ffaf
ff95
ffa6
ffc1
ffd9
ffec
0015
003d
0050
0048
0043
0009
ffdd
ffff
0000
0000
fffd
fff2
fff3
0007
0012
0015
001e
0036
0056
0067
0044
ffeb
ffc4
ffe0
fff2
ffff
0015
002a
0052
0073
0070
0067
005a
0034
0000
0000
0000
0000
0000
ffed
ffe7
0001
0012
0018
002b
0053
006e
0062
001a
ffcf
fff2
0024
002e
0022
0019
0034
0069
0085
0086
0069
0054
0041
001b
0000
0000
0000
0000
ffe1
ffdd
fff3
000a
001a
0041
006a
0081
0056
0013
ffed
0013
002d
0027
0011
0018
0034
006c
008a
0081
005a
0047
002c
ffea
fffa
0000
fffd
fffa
ffe0
ffdb
ffe6
fff9
0014
004d
0086
0093
0065
0021
000f
001c
fff6
ffd9
ffe4
001b
004b
0071
0077
006e
0049
0034
000d
ffda
fffa
0000
fffc
fff9
ffe6
ffcb
ffcf
ffdb
000a
0059
00ac
00c8
00a0
0056
0035
000b
ffcb
ffc9
fffd
003d
0073
0087
0060
0051
0036
000d
fffc
ffea
fff7
0000
fffc
fff9
ffe8
ffcd
ffbe
ffb4
ffe3
004a
00bb
00f9
00e3
00a1
004f
000f
ffec
0010
004a
006a
007c
006b
0047
002d
0021
fffa
ffed
fff4
fff8
0000
0000
fff7
ffed
ffd4
ffb8
ff9f
ffb0
0005
0082
00e6
010d
00e1
0083
0048
004c
006f
007c
006f
005e
0041
0024
0011
0004
ffe8
ffe7
fffb
fff8
0000
ffff
fff8
fff0
ffdd
ffbe
ff9c
ff96
ffbb
0010
007c
00cf
00e5
00c5
00ab
00a6
0091
006a
004a
0025
000a
fff3
ffec
ffed
ffe8
fff3
fffa
0000
0000
ffff
fffb
fff1
ffde
ffc5
ffa6
ff98
ff97
ffb1
ffee
0042
008c
009f
008e
006c
0044
001a
fffd
ffe9
ffdc
ffd4
ffda
ffe1
ffee
fff4
fffc
0000
0000
0000
fffe
fff3
ffea
ffd6
ffbb
ffab
ff95
ff80
ff84
ff8c
ffae
ffc2
ffc4
ffc4
ffba
ffb9
ffc1
ffc9
ffcb
ffd1
ffd9
ffe5
fff1
fff6
fffb
0000
0000
0000
0000
fff8
fff1
ffe6
ffd6
ffc5
ffb1
ff97
ff77
ff57
ff48
ff50
ff5f
ff74
ff86
ff97
ffb4
ffc7
ffd8
ffdd
ffe6
ffed
fff6
fffd
fff8
0000
0000
0000
0000
fffb
fff6
fff0
ffe6
ffdd
ffd0
ffc4
ffb6
ffa6
ff9e
ff9b
ff9d
ffa7
ffb1
ffbc
ffcd
ffd8
ffdf
ffea
fff0
fff4
fffa
fffe
0000
0000
0000
0000
0000
fffe
fffa
fff6
fff3
ffee
ffe5
ffde
ffd8
ffd5
ffd2
ffd1
ffd0
ffd4
ffd9
ffe0
ffe5
ffe9
ffef
fff3
fff8
fffb
fffa
0000
0000
0000
0000
0000
0000
ffff
fffd
fffb
fff9
fff6
fff1
ffef
fff0
fff0
fff0
ffef
ffed
ffee
fff1
fff3
fff6
fff8
fff9
fffa
fffb
fffe
0000
0000
0000
0000
0000
0000
0000
0000
0000
0000
fffe
fffe
0000
ffff
fffb
fffc
fffe
ffff
fffb
fffb
fffb
fffb
fffb
fffc
fffe
fffc
fff9
0000
0000
0000
0000
0000
0000
0000
0000
0000
0000
0000
0000
0000
0000
0000
0000
0000
0000
0000
0000
0000
0000
0000
0000
0000
0000
0000
0000
0000
0000
0000
0000
0000
0000
0000
0000
0000
0000
0000
0000
0000
ffff
fffe
fffe
fffd
fffd
ffff
fffe
fff9
fffd
ffff
ffff
0000
0000
0000
0000
0000
0000
0000
0000
0000
0000
0000
0000
0000
0000
0000
0000
ffff
fffc
fff8
fff9
fff8
fff6
fff7
fff4
fff2
fff2
fff2
fff2
fff5
fffb
fffc
fffd
fffa
fff9
0000
0000
0000
0000
0000
0000
0000
0000
ffff
fffe
fffa
fff6
fff3
fff0
ffee
ffeb
ffe8
ffe3
ffe1
ffe0
ffe1
ffe4
ffea
fff0
fff4
fff7
fffb
fffe
0000
0000
0000
0000
0000
0000
fffe
fffc
fff5
fff2
ffef
ffec
ffe5
ffde
ffd5
ffc8
ffbb
ffb3
ffb0
ffb2
ffb9
ffc3
ffcc
ffd5
ffe0
ffe5
ffed
fff5
fffc
0000
0000
0000
0000
fffe
fffe
fff4
ffee
ffeb
ffed
ffeb
ffe0
ffce
ffb6
ff9e
ff87
ff79
ff71
ff71
ff77
ff88
ff9a
ffb0
ffc1
ffd0
ffd6
ffe4
fff4
fffc
0000
0000
0000
fff6
fff1
fffd
0000
000a
0016
0010
fff3
ffdc
ffc3
ffa9
ff85
ff67
ff56
ff5f
ff68
ff77
ff8e
ffa1
ffbc
ffcb
ffc8
ffd2
ffe4
fff3
fff9
0012
001e
000d
0006
0018
0020
0044
0062
0050
004f
0047
0031
000f
ffe1
ffc9
ffd2
ffd8
ffe2
ffe4
ffeb
ffdf
ffdc
ffd1
ffc7
ffc1
ffd5
ffed
fff8
0012
0017
002f
0026
002e
004f
007a
009b
00a3
009c
008d
0079
006b
0060
0068
0084
0095
0091
0069
004e
001a
fffa
ffe3
ffcf
ffc2
ffd5
ffed
fff2
0012
002a
002a
0043
0060
0084
0097
00a6
00ae
0099
0082
0078
007f
008c
00ac
00c8
00e1
00d1
00a2
0069
003a
0014
0002
ffe0
ffcd
ffd5
ffef
fff9
0000
0029
0020
0062
0075
0088
0080
0085
0077
004c
003a
0038
0044
0061
0060
0078
00a6
00ba
00a4
0072
004d
0020
000e
fffb
ffe2
ffdf
fff2
fffe
0000
0018
0016
0067
0070
0057
0043
0040
0036
000f
ffe7
ffe2
ffee
fff9
ffea
0005
004c
0087
008e
005d
003f
0020
000b
fff1
ffe3
ffe6
ffe7
ffff
0000
0009
0026
003a
0047
002a
0019
000c
fff8
ffc1
ff9c
ff8e
ff84
ff6a
ff69
ff99
000b
005f
0066
004d
0029
000e
fffe
ffe8
ffea
fff3
fff0
ffff
0000
fffd
002f
0025
002f
001e
0000
ffea
ffc0
ff8d
ff5f
ff31
ff17
fefb
ff0b
ff60
fffa
004e
004d
0034
0014
ffff
fff2
ffe5
fff0
fff6
fff6
0000
0000
fffb
0007
0024
0033
0013
0000
ffe1
ffb2
ff73
ff29
feff
fede
fecf
fefc
ff74
001d
004b
0048
002d
000b
0002
fffa
fff7
0004
0022
fff7
0000
0000
fffb
fffc
0023
001e
0013
0005
ffe0
ffa8
ff6f
ff3a
ff15
ff04
ff01
ff4c
ffe3
0047
005e
004b
0023
0006
0004
ffff
fffa
fffc
0013
fff7
fffc
0000
fff7
fffe
0012
001a
0009
fff7
ffd6
ffb2
ff87
ff67
ff4f
ff50
ff69
ffce
0041
005a
0048
0025
000a
fff1
ffec
fff0
ffef
ffe3
fff3
fff5
fffc
0000
fffd
fffb
fffd
000c
fff6
ffe0
ffc5
ffaf
ff95
ff82
ff82
ff9d
ffd6
003e
0066
0041
0016
ffea
ffcf
ffcc
ffd1
ffd5
ffe4
fff5
0004
000b
fffa
0000
fffd
0005
fff8
fffb
ffdf
ffc2
ffae
ffa0
ff90
ff92
ffab
ffe0
002d
0064
0053
000d
ffdf
ffbc
ffb4
ffbc
ffc1
ffc4
ffd3
ffeb
fffb
0005
fff8
0000
0000
0007
fff6
ffe5
ffce
ffb9
ffa6
ff95
ff8c
ff9a
ffbf
0010
0041
0057
0027
ffe8
ffb8
ffa1
ffa0
ffac
ffb5
ffc0
ffd7
ffe9
fffa
ffff
fff8
0000
0000
fffa
fff4
ffe6
ffcf
ffba
ffa7
ff94
ff93
ffb4
ffe2
0020
0037
002d
fffa
ffc8
ffa1
ff94
ff99
ffac
ffb8
ffca
ffdd
ffef
fffc
0000
fffe
0000
0000
fffc
fff3
ffe7
ffd5
ffc4
ffad
ffa1
ffb0
ffc3
0000
0015
0016
fffe
ffe1
ffbf
ffa4
ff94
ff9c
ffb1
ffc1
ffd2
ffe4
fff2
fff9
ffff
0000
0000
0000
ffff
fff4
ffe9
ffe8
ffd1
ffc1
ffc8
ffcc
ffe7
fffe
0005
fff9
ffed
ffe9
ffca
ffae
ff9f
ffa8
ffba
ffcd
ffd1
ffe3
fff6
fffa
fffd
0000
0000
0000
fffe
fff6
0000
fff4
ffe8
fff0
fffa
fffe
0011
000e
0002
fffb
ffff
0002
ffe0
ffc9
ffb4
ffb6
ffc9
ffd0
ffd7
ffe0
fff4
fffa
fff4
0000
0000
0000
0000
ffed
0016
001a
0022
0039
004d
005e
0062
005b
003b
0049
005b
004f
0027
0008
ffe0
ffd8
ffd7
ffdc
ffdc
ffe6
fff3
fff6
0000
0000
0000
0000
0000
0025
0050
0046
004d
0082
00a4
00bf
00cb
00c3
00af
00c6
00dc
00b3
0080
004c
0013
0006
fffb
fff7
ffed
fff4
fff3
0000
0000
0000
0000
0000
0000
fff2
fffd
0037
0040
0068
0092
00b4
00d0
00c8
00b4
00bc
00c1
00a8
00a0
0073
0042
003f
0022
0022
000c
000e
0000
0000
0000
0000
0000
0000
0000
0000
0000
0009
0026
002b
0018
0021
004d
0047
0039
0033
0043
0053
0054
0056
002f
0029
0028
0049
000c
0000
0000
0000
0000
0000
0000
0000
0000
0000
0000
0000
0000
0000
0000
0000
0000
0000
0000
0000
0000
0000
0000
0000
0000
0000
0000
0000
0000
0000
0000
0000
0000
0000
0000
0000
0000
0000
0000
0000
0000
ffff
fffe
fffc
fffa
fffb
fffa
fffb
fffc
fff7
fffa
fffc
fffc
fffc
fffd
fffd
fffe
ffff
0000
0000
0000
0000
0000
0000
0000
0000
ffff
fffe
ffff
fffc
fff9
fff5
fff3
fff0
ffea
ffe7
ffe2
ffdf
ffdb
ffdb
ffe1
ffe3
ffed
fff2
fff7
fff5
fff5
0000
0000
0000
0000
0000
0000
0000
fffe
fffc
fff9
fff5
ffef
ffe7
ffe2
ffdb
ffd0
ffc9
ffc1
ffbd
ffb9
ffbb
ffcc
ffdb
ffe0
ffe4
ffec
fff9
fffa
0000
0000
0000
0000
0000
0000
fffb
fff9
fff3
fff3
fffa
ffed
ffd8
ffca
ffc7
ffc4
ffcd
ffd1
ffd7
ffed
ffe6
fff0
fffc
fff5
ffe6
ffe2
fff3
0007
fff8
fffd
0000
0000
0000
fffd
fff9
fff0
ffe3
ffdf
ffda
ffc8
ffcc
ffd8
0011
0034
005c
008b
00a5
00a9
009c
0070
004f
002f
0029
0010
fffe
ffee
ffff
0029
fff9
0000
0000
fffd
fff1
ffe7
ffd7
ffd7
ffd1
ffdd
fff7
001e
0058
0081
009f
00ac
00b0
00a2
009e
007a
0062
0049
0042
0047
003a
0010
0007
0011
0037
fffd
fff9
fffb
ffe9
ffde
ffde
ffe2
ffef
0011
002b
0049
0069
005f
0041
0019
0007
000f
0014
0039
003d
0038
0048
0059
005e
002d
000d
000f
0017
fffd
fffb
fff8
ffe5
ffe0
ffe2
fffa
0017
0030
0050
0068
0056
0028
fff2
ffbc
ffa5
ffa9
ffbd
fffa
0032
0043
0057
007b
0086
0065
ffff
000c
003d
fffd
fff7
fff2
ffe8
fff1
fff5
0019
0031
004c
0064
0066
004e
0023
fff6
ffb1
ff7f
ff89
ffb9
ffed
0040
0069
0091
00a1
00ae
007e
0022
0003
fffa
0000
fff7
fff3
ffe7
fffb
000e
0029
0035
004d
0055
0069
0057
0053
0016
ffc7
ff9a
ffb3
ffe9
0023
0067
0084
0091
0086
0074
0053
003a
0003
fffd
0000
fffc
fff5
ffe7
0005
0011
001b
001e
0029
002d
0050
0079
009a
0072
0010
ffea
0006
0041
0066
006a
0061
004f
0044
003a
004d
0066
001d
000d
0000
fffe
fff9
ffea
000b
0009
fffa
ffe3
ffe3
fff9
0025
0075
00c3
00b0
0067
0064
0076
0059
0049
0028
0011
001a
0019
0024
0033
0055
0046
000d
0000
ffff
fffb
ffee
fff7
ffef
ffdb
ffb8
ffaa
ffac
ffe6
0061
00de
00d8
00ae
00c1
0091
0017
ffd8
ffbc
ffc2
ffe2
fff9
0001
0012
002c
003d
0000
0000
ffff
fffe
fff0
ffe6
ffcf
ffaf
ff96
ff79
ff7b
ffc4
005b
00e8
00f9
00e4
00c6
0050
ffcf
ff7b
ff77
ff8a
ffaf
ffd1
ffe5
0001
0002
fff2
0000
0000
ffff
fffe
ffef
ffe0
ffbe
ff9b
ff7e
ff61
ff79
ffd8
007d
0100
0108
00d7
007e
0006
ff94
ff61
ff6e
ff78
ff95
ffb9
ffda
fffc
ffff
ffea
fffb
0000
fffb
fff8
ffea
ffd9
ffb8
ffa1
ff8d
ff90
ffc7
0042
00d8
010c
00db
008c
0037
fff6
ffb1
ff7d
ff6c
ff87
ffa6
ffbb
ffdc
fff6
fff3
fff1
fffb
0000
fff8
fff7
ffe4
ffcf
ffb2
ffaa
ffb8
ffec
004d
00d3
0127
0105
0084
002e
0003
ffea
ffcb
ffa3
ff89
ff9f
ffbc
ffd7
ffe8
fff3
ffe4
fff0
fffb
0000
fff8
fff2
ffde
ffc3
ffb4
ffb9
ffeb
0043
00b6
0102
00ff
009d
0021
ffdd
ffdd
ffe2
ffc8
ffbe
ffae
ffb3
ffd1
fff0
fffa
ffe7
ffe6
fff2
fff6
0000
0000
ffee
ffdb
ffbf
ffb2
ffc8
0014
0069
00b8
00c5
0086
0018
ffc2
ffa4
ffb3
ffc6
ffd3
ffdf
ffd8
ffce
ffe7
0000
0002
ffe7
ffec
fffa
fff6
0000
fffe
ffee
ffda
ffc2
ffc3
ffe5
002c
005f
0082
006f
001c
ffcb
ff9c
ff93
ffad
ffc5
fff6
000d
0007
fff2
fff9
0005
000a
fff5
fff1
fff9
fffa
0000
fffe
fff1
ffdb
ffc5
ffd3
fffa
002b
0043
0046
0046
001b
fffb
ffed
ffee
fff7
000f
003c
0046
002e
000c
000e
001a
001a
ffff
fff3
fffb
0000
0000
0000
fff8
ffe1
ffd2
ffea
0016
001d
0020
002e
0063
0081
00a1
0092
007c
0061
006b
0076
0069
003e
0024
001c
0027
0012
0004
fff7
fffc
0000
0000
0000
fffc
ffe8
ffd6
fffc
000a
000c
001f
0030
0068
00b1
00f5
00fd
00d8
00bc
00ac
0091
006d
0051
003a
002d
0013
000f
0001
fffe
fff9
0000
0000
0000
0000
ffdc
ffd0
ffe4
fffb
fffc
0015
0021
0031
0057
0087
00a0
00a5
00a2
0086
0055
0036
0028
0016
000c
0000
fff7
fff8
fffd
0000
0000
0000
0000
0000
fff9
ffe7
ffdb
ffd4
ffca
ffbd
ffae
ffad
ffad
ffbc
ffbf
ffcb
ffcd
ffd2
ffde
ffeb
fff7
fff4
ffee
fff3
fff3
fff4
0000
0000
0000
0000
0000
0000
fffc
fff8
fff1
ffe9
ffe2
ffd7
ffcf
ffce
ffcf
ffcf
ffcf
ffcf
ffd7
ffdf
ffe3
ffe9
ffef
fff3
fff8
fffd
0004
0000
0000
0000
0000
0000
0000
0000
0000
0000
ffff
fffb
fffa
fffb
fffa
fff4
fff5
fff5
fff6
fff3
fff3
fff5
fff7
fff8
fffa
fffd
fffd
fff9
0000
0000
0000
0000
0000
0000
0000
0000
0000
0000
0000
0000
0000
0000
0000
0000
0000
0000
0000
0000
0000
0000
0000
0000
0000
0000
0000
0000
0000
0000
0000
0000
0000
0000
0000
0000
0000
0000
0000
0000
0000
fffe
fffd
fffc
fffc
fffb
fffc
fffc
fff5
fff9
fffd
fffd
fffe
fffe
fffe
fffe
ffff
0000
0000
0000
0000
0000
0000
0000
0000
0000
ffff
0000
fffe
fffc
fff8
fff7
fff4
ffef
ffed
ffe9
ffe6
ffe4
ffe4
ffe6
ffec
fff5
fff8
fffa
fff8
fff8
0000
0000
0000
0000
0000
0000
0000
ffff
fffe
fffc
fffa
fff6
fff0
ffea
ffe6
ffde
ffd7
ffcf
ffc7
ffc5
ffc9
ffd0
ffd9
ffe5
ffec
fff3
fff8
fffc
0000
0000
0000
0000
0000
0000
fffd
fffc
fff7
ffef
ffec
ffe6
ffdd
ffd3
ffca
ffb9
ffa5
ff98
ff8d
ff8a
ff8e
ff9b
ffa9
ffb9
ffcb
ffd7
ffe3
ffee
fffa
ffff
0000
0000
0000
fffe
fffc
fff6
ffea
ffdf
ffd4
ffcc
ffbd
ffab
ffa3
ff8d
ff6b
ff51
ff47
ff3f
ff45
ff56
ff6f
ff89
ff9c
ffac
ffc0
ffd4
ffea
fff8
fffe
0000
0000
fff9
fff2
ffe6
ffd7
ffc7
ffb5
ffa2
ff9a
ff8e
ff93
ffa3
ffd9
0020
0055
0049
0010
ffcb
ffa3
ff91
ff85
ff8d
ffa4
ffbe
ffdb
ffef
fff5
fffc
fff9
fff9
ffea
ffd4
ffc2
ffad
ff96
ff8a
ff82
ff9a
ffd1
003d
00b9
0111
0135
011a
00af
0026
ffe4
ffce
ffa1
ff8e
ff96
ffb2
ffd0
ffe7
fff6
fffc
fffb
fff7
ffe6
ffcf
ffb9
ffab
ff9b
ff9c
ffaf
ffeb
0050
00af
00d7
00c1
00aa
0088
0066
002d
fffd
ffe7
ffca
ffab
ffa3
ffb3
ffd1
ffeb
fff3
fffc
fff9
fff2
ffe6
ffcb
ffc3
ffcc
ffcf
ffdd
0011
006b
009f
0090
003d
fff6
ffd4
ffd2
000b
0030
0016
0003
ffeb
ffd1
ffc1
ffc1
ffd6
fff0
fffa
0000
fff8
fff3
ffe8
ffdb
fff4
0007
0019
0031
0079
00aa
008a
0013
ffa6
ff85
ff85
ffbe
0010
0056
0057
002b
0019
fff8
ffe5
ffdb
ffe1
fff7
fffe
0000
fff9
fff2
ffea
ffec
0020
0045
006b
006e
00a9
00a0
0031
ffae
ff73
ff88
ffbc
000d
0068
009b
0090
0062
0038
0009
fff5
ffeb
ffeb
fff4
fffe
0000
fffb
fff3
0005
001a
0045
006e
0083
009d
00a1
0069
fff4
ffad
ffa8
ffdc
0025
0077
00c5
00bd
009d
0059
0027
fff5
fff7
ffef
ffef
fff2
fffe
0000
fffe
fff2
0020
0032
0044
005c
007f
0096
008a
004b
ffff
fff5
0010
003c
0078
00b4
00dd
00b7
006f
0026
0001
ffed
ffea
ffe4
fffb
0005
0000
0000
fffe
fffc
001d
0023
002b
0039
005b
006f
005e
004c
0032
003c
003e
0057
0070
00b7
00cf
0078
001d
ffec
ffd8
ffd7
ffda
ffda
fff6
000d
0000
0000
fffe
fffe
0001
000e
0011
0018
0020
004c
0053
0055
004a
0039
001c
0008
0042
00b7
00a2
0027
ffd4
ffc3
ffba
ffc4
ffca
ffdb
fff6
0000
fff5
0000
fff8
fffa
fff7
fff9
fff7
fff8
fffc
0014
003c
004d
0040
0018
ffea
ffdd
0053
00a9
0058
ffea
ffb4
ffaf
ffae
ffbd
ffc9
ffda
fff1
fff6
fff5
0000
fff8
fffd
fff0
ffe8
ffdc
ffd9
ffd7
ffdb
fffa
000f
0001
ffdd
ffd2
0002
006e
0075
001d
ffdc
ffbf
ffb6
ffac
ffb8
ffcd
ffdc
ffed
fff0
fffa
0000
fff9
fffe
fff3
ffe0
ffc9
ffc3
ffba
ffb0
ffb3
ffb7
ffb2
ffb3
ffc5
001a
004f
0032
fff2
ffc9
ffc8
ffc3
ffb5
ffbe
ffd5
ffe6
fff2
fff4
fff8
0000
0000
fff4
fff5
ffdd
ffc5
ffb6
ffa7
ff95
ff80
ff79
ff88
ff99
ffd4
000f
001b
fff0
ffc6
ffb7
ffd3
ffcd
ffbd
ffcc
ffe0
fff5
fff5
fffe
fff7
0000
0000
fff6
fff4
ffe2
ffc6
ffb5
ff9c
ff7c
ff64
ff5f
ff73
ff9b
ffcf
ffee
ffe5
ffca
ffac
ffbd
ffd7
ffd0
ffc9
ffda
ffee
0006
fff7
fffe
fffd
0000
0000
fff8
ffee
ffe3
ffc7
ffb2
ff99
ff7d
ff6d
ff6f
ff71
ffa7
ffc2
ffcb
ffc1
ffb2
ffbe
ffcd
ffdf
ffe4
ffe0
ffe0
fffe
000a
fff4
fffd
0000
0000
0000
fffc
fff1
ffe5
ffcf
ffb9
ffa6
ff99
ff90
ff8a
ff9a
ffad
ffb7
ffbc
ffad
ffbe
ffdc
ffe0
fff8
000c
0008
ffef
0007
0008
fff7
fffd
0000
0000
0000
fffe
fff4
ffe9
ffe3
ffc6
ffcb
ffcd
ffc4
ffc5
ffcb
ffc8
ffbf
ffbd
ffb9
ffe7
0006
0020
0037
004f
0040
002a
0017
0009
fffc
fff8
0000
0000
0000
0000
fff3
ffed
fffb
fff1
0008
001b
0021
0044
0036
0027
0009
ffff
000f
0043
006f
0082
0081
007f
007b
0060
0043
0002
fffb
0000
0000
0000
0000
0000
fff9
fff6
0020
002b
0041
0065
008b
00ae
00c8
00c1
00a9
0098
0094
00b6
00d4
00de
00af
0097
008e
005c
0044
004a
0000
0000
0000
0000
0000
0000
0024
002e
0016
0020
0025
003b
0043
0023
002b
003c
003b
004f
004b
0031
004a
0058
0038
003a
0029
0033
0014
0000
0000
0000
0000
0000
0000
0000
0000
0000
fffc
fff8
fff6
fffa
fff9
fff1
fff0
fff5
fff6
0009
fffb
ffec
ffed
0012
000c
fff8
ffdf
003a
0000
0000
0000
0000
0000
0000
0000
0000
0000
0000
0000
0000
0000
0000
0000
0000
0000
0000
0000
0000
0000
0000
0000
0000
0000
0000
0000
0000
0000
0000
0000
0000
0000
0000
0000
0000
0000
0000
0000
0000
0000
0000
0000
0000
0000
0000
0000
0000
0000
0000
0000
0000
0000
0000
0000
0000
0000
0000
0000
0000
0000
0000
0000
0000
0000
0000
0000
0000
0000
0000
0000
0000
0000
0000
0000
0000
0000
0000
0000
0000
0000
0000
0000
0000
0000
0000
0000
0000
0000
0000
0000
0000
0000
0000
0000
0000
0000
0000
0000
0000
0000
0000
0000
0000
0000
0000
0000
0000
0000
0000
0000
0000
0000
0000
0000
0000
0000
0000
0000
0000
0000
0000
0000
0000
0000
0000
0000
0000
0000
0000
0000
0000
0000
0000
0000
0000
0000
0000
0000
0000
0000
0000
0000
0000
0000
0000
0000
0000
0000
0000
0000
0000
0000
0000
0000
0000
0000
0000
0000
0000
0000
0000
0000
0000
0000
0000
0000
0000
0000
0000
0000
0000
0000
0000
0000
0000
0000
0000
0000
0000
0000
0000
0000
0000
0000
0000
0000
0000
0000
0000
0000
0000
0000
0000
0000
0000
0000
0000
0000
0000
0000
0000
0000
0000
0000
0000
0000
0000
0000
0000
0000
0000
0000
0000
0000
0000
0000
0000
0000
0000
0000
0000
0000
0000
0000
0000
0000
0000
0000
0000
0000
0000
0000
0000
0000
0000
0000
0000
0000
0000
0000
0000
0000
0000
0000
0000
0000
0000
0000
0000
0000
0000
0000
0000
0000
0000
0000
0000
0000
0000
0000
0000
0000
0000
0000
0000
0000
0000
0000
0000
0000
0000
0000
0000
0000
0000
0000
0000
0000
0000
0000
0000
0000
0000
0000
0000
0000
0000
0000
0000
0000
0000
0000
0000
0000
0000
0000
0000
0000
0000
0000
0000
0000
0000
0000
0000
0000
0000
0000
0000
0000
0000
0000
0000
0000
0000
0000
0000
0000
0000
0000
0000
0000
0000
0000
0000
0000
0000
0000
0000
0000
0000
0000
0000
0000
0000
0000
0000
0000
0000
0000
0000
0000
0000
0000
0000
0000
0000
0000
0000
0000
0000
0000
0000
0000
0000
0000
